#ifndef BNN_WEIGHTS_H
#define BNN_WEIGHTS_H

#include <stdint.h>

#define BNN_MODEL_WORDS 136u
#define BNN_MODEL_BIAS 0

static const uint64_t BNN_WEIGHTS[BNN_MODEL_WORDS] = {
    0x0D83B3E29A21487AULL,
    0x6BF22468CC7011DDULL,
    0xB02FC9D94B6BBA92ULL,
    0x3B1D1CA45E578555ULL,
    0x9F346D2E924E92C4ULL,
    0x5D58FC6B4E7647B6ULL,
    0xA2C2E7EBDE5FAC7BULL,
    0xC103201CC405E1A1ULL,
    0x8F19BAC2C0281DF8ULL,
    0x7C1CDB4823FF38A2ULL,
    0xF218E36E0540FF3BULL,
    0x4AE8723A7D4248E3ULL,
    0x6B817BF05B5F8F89ULL,
    0x8F64810CFE5D56EDULL,
    0xB452C8A750AF661FULL,
    0x1B9AC19C78700908ULL,
    0x015CCCA65AE7DC2EULL,
    0x52BD40DE573EC8E1ULL,
    0x365B5502E858C411ULL,
    0xEDB08BD9B8C1C579ULL,
    0xA9E4B6963C090C2CULL,
    0x0A93B117A35D8F75ULL,
    0x940D7B012D6B8D50ULL,
    0xC523839EAFFB2DDDULL,
    0x24A60E68E7D65C4EULL,
    0x576FCF335D88CFFDULL,
    0x0082F97FC8A820F8ULL,
    0x4244F09B89BAB013ULL,
    0x8758C31577E0B36EULL,
    0x8A2676DE95911F44ULL,
    0x177FEDB50991FFE3ULL,
    0x85C9CF2B56829975ULL,
    0x6D6A63F80D952EE3ULL,
    0x497051BE1B189D8FULL,
    0x2C73B37F7493E6ABULL,
    0xF7E8BF0AFE7A9018ULL,
    0x12D4F705B7680C0CULL,
    0xB3C5DEBB5402A17BULL,
    0x2077CCCC3B1432CAULL,
    0x7B73165059736F41ULL,
    0xEF6D8718BE2F83B9ULL,
    0x3F9AE564E48245E8ULL,
    0x595AD87C37ED5A65ULL,
    0x7C4C7F18D4447042ULL,
    0xC32F6C371F17B360ULL,
    0x72ED669F3C7E82CEULL,
    0xBCA5521FE84EE1D1ULL,
    0x10D77064BE30AAA5ULL,
    0x8E4B3E4EA59C1047ULL,
    0x7D83D4A9DEAB2FF3ULL,
    0x81846139F16F33D7ULL,
    0xCCF9413CE757946DULL,
    0x9D69E1C64ED2D7F3ULL,
    0x40E0EDCFE7704537ULL,
    0x026AE18F36F4B738ULL,
    0x660CA356F116CC62ULL,
    0x9F0185AA4F248E21ULL,
    0x05B58A85CFC5738DULL,
    0xD96988161772E980ULL,
    0x087E9BE802CCBB5BULL,
    0x0F599CDD56598897ULL,
    0xABFAA5B95CB16243ULL,
    0xC7C64230767BC7E0ULL,
    0x1C406E3F6E682CDDULL,
    0x20B21652B6693435ULL,
    0x73A835A3ED01D641ULL,
    0xCFCB586EFD22D909ULL,
    0xEECE94F57C8C12BAULL,
    0x1FEE3A14FE8BD537ULL,
    0x5B630F90200F1357ULL,
    0x45896A33C28FC484ULL,
    0x1E1A4F98447A0FE2ULL,
    0xB5DC6DAD54767051ULL,
    0xB1DA3B48BCDF2CA2ULL,
    0x5AAE45CF55D8B071ULL,
    0x31910D0047C4D1F1ULL,
    0xF05C69BE237126DDULL,
    0x1288EAB9D825E45FULL,
    0x515F99C43BE55493ULL,
    0xE726DAAFBC05C817ULL,
    0x5A8F3EF76419DC0FULL,
    0x0EE8F000A18208ABULL,
    0xB2CF62C29A18A489ULL,
    0x23CE20B198C0B321ULL,
    0xD3226B395D806C8AULL,
    0x16D1F65CC5BC254AULL,
    0xBC6616EC692235A6ULL,
    0x8DD40D8A87994D34ULL,
    0xC92BC97210824D17ULL,
    0x74D4881C9A3EFFD3ULL,
    0x1072E3D8FD42C0F0ULL,
    0x67CDDC3890347FC7ULL,
    0x86A595C97CF8C622ULL,
    0x62EF57B9B14D27DDULL,
    0xAC3E5A9FFC5068A1ULL,
    0x1922CE2AA7ADE7F4ULL,
    0xBC5E0EBBE1786D08ULL,
    0x3277DB1EF72AD79CULL,
    0x92AACE74E3D46361ULL,
    0xAF390181339193B6ULL,
    0x841A5A2C1235FABDULL,
    0x391D44E1313E757CULL,
    0x3D5CB30C30086F8AULL,
    0xDFF0C424ACA5D453ULL,
    0xCC2EE59BA024AC50ULL,
    0x0BAEAAC04444D9F7ULL,
    0xF019C5BE3BC4F785ULL,
    0xBFEACCED423E7A24ULL,
    0x3A4B2CBC18C093BAULL,
    0x607723BFEBFDF511ULL,
    0x9875EB88F7E7FE8BULL,
    0xD5327C6BC33B9200ULL,
    0xFE418C7F4C8844DBULL,
    0x5AAF14FA1EEB40F5ULL,
    0xC5A65805E3C2B82FULL,
    0xCD81DE4943C22B05ULL,
    0x0B6F97674DDA57D2ULL,
    0x849632E29EB1ED19ULL,
    0x23847CCD2C6D7EF0ULL,
    0xA906E2848E5401EAULL,
    0x06BA15562A169C04ULL,
    0x7D7B8FEFF02C2995ULL,
    0xF5AA08B898CF2137ULL,
    0x6E25426023E7039EULL,
    0x1A9D08B366674761ULL,
    0xB424C80E1E28AF19ULL,
    0x1EAF1FBB17A76494ULL,
    0x4E04FC0E93A87BCBULL,
    0x3DF95D635F3A1C01ULL,
    0x1DBED89923268855ULL,
    0xB78A147E33B9016BULL,
    0x5C28B86AA54D055FULL,
    0xDED09196658753A8ULL,
    0x496367F6B86ED951ULL,
    0xB019509B20EC377FULL,
    0x2FD8E6BA1080FE7EULL
};

#endif
